{
  "version": "1.0",
  "truncation": null,
  "padding": null,
  "added_tokens": [
    {
      "id": 0,
      "content": "<|pad|>",
      "single_word": false,
      "lstrip": false,
      "rstrip": false,
      "normalized": false,
      "special": true
    },
    {
      "id": 1,
      "content": "<|unk|>",
      "single_word": false,
      "lstrip": false,
      "rstrip": false,
      "normalized": false,
      "special": true
    },
    {
      "id": 2,
      "content": "<|user_prompt|>",
      "single_word": false,
      "lstrip": false,
      "rstrip": false,
      "normalized": false,
      "special": true
    },
    {
      "id": 3,
      "content": "<|verified_facts|>",
      "single_word": false,
      "lstrip": false,
      "rstrip": false,
      "normalized": false,
      "special": true
    },
    {
      "id": 4,
      "content": "<|end_facts|>",
      "single_word": false,
      "lstrip": false,
      "rstrip": false,
      "normalized": false,
      "special": true
    },
    {
      "id": 5,
      "content": "<|final_answer|>",
      "single_word": false,
      "lstrip": false,
      "rstrip": false,
      "normalized": false,
      "special": true
    },
    {
      "id": 6,
      "content": "<|missing_facts|>",
      "single_word": false,
      "lstrip": false,
      "rstrip": false,
      "normalized": false,
      "special": true
    },
    {
      "id": 7,
      "content": "<|uncertain|>",
      "single_word": false,
      "lstrip": false,
      "rstrip": false,
      "normalized": false,
      "special": true
    }
  ],
  "normalizer": null,
  "pre_tokenizer": {
    "type": "Split",
    "pattern": {
      "String": "([\\{\\}\\[\\]\\:\\,\\\"\\'])|(\\s+)|([a-zA-Z0-9_\\-\\.\\@]+)"
    },
    "behavior": "Isolated",
    "invert": false
  },
  "post_processor": null,
  "decoder": null,
  "model": {
    "type": "BPE",
    "dropout": null,
    "unk_token": "<|unk|>",
    "continuing_subword_prefix": null,
    "end_of_word_suffix": null,
    "fuse_unk": false,
    "byte_fallback": false,
    "ignore_merges": false,
    "vocab": {
      "<|pad|>": 0,
      "<|unk|>": 1,
      "<|user_prompt|>": 2,
      "<|verified_facts|>": 3,
      "<|end_facts|>": 4,
      "<|final_answer|>": 5,
      "<|missing_facts|>": 6,
      "<|uncertain|>": 7,
      "\n": 8,
      "\r": 9,
      " ": 10,
      "!": 11,
      "\"": 12,
      "%": 13,
      "*": 14,
      "+": 15,
      ",": 16,
      "-": 17,
      ".": 18,
      "/": 19,
      "0": 20,
      "1": 21,
      "2": 22,
      "3": 23,
      "4": 24,
      "5": 25,
      "6": 26,
      "8": 27,
      ":": 28,
      "<": 29,
      ">": 30,
      "C": 31,
      "E": 32,
      "H": 33,
      "I": 34,
      "J": 35,
      "P": 36,
      "R": 37,
      "S": 38,
      "T": 39,
      "_": 40,
      "a": 41,
      "b": 42,
      "c": 43,
      "d": 44,
      "e": 45,
      "f": 46,
      "g": 47,
      "h": 48,
      "i": 49,
      "k": 50,
      "l": 51,
      "m": 52,
      "n": 53,
      "o": 54,
      "p": 55,
      "r": 56,
      "s": 57,
      "t": 58,
      "u": 59,
      "v": 60,
      "w": 61,
      "x": 62,
      "y": 63,
      "z": 64,
      "{": 65,
      "|": 66,
      "}": 67,
      " \"": 68,
      "er": 69,
      "<|": 70,
      "|>": 71,
      "e\"": 72,
      ": \"": 73,
      "re": 74,
      "al": 75,
      "d_": 76,
      "fi": 77,
      "ac": 78,
      "e\": \"": 79,
      "en": 80,
      "e ": 81,
      ", \"": 82,
      "fac": 83,
      "s|>": 84,
      "ts|>": 85,
      "d_fac": 86,
      "d_facts|>": 87,
      "an": 88,
      "us": 89,
      "user": 90,
      "pt": 91,
      "ifi": 92,
      "\"t": 93,
      "pe\": \"": 94,
      "ype\": \"": 95,
      "{\"t": 96,
      "{\"type\": \"": 97,
      "om": 98,
      "on": 99,
      "e\", \"": 100,
      " i": 101,
      "val": 102,
      "\r\n": 103,
      "_p": 104,
      "_an": 105,
      "ed_facts|>": 106,
      "nal": 107,
      "rom": 108,
      "sw": 109,
      "ver": 110,
      "}<|": 111,
      "er|>": 112,
      "<|fi": 113,
      "<|user": 114,
      "<|ver": 115,
      "end_facts|>": 116,
      "pt|>": 117,
      "ified_facts|>": 118,
      "_prom": 119,
      "_answ": 120,
      "nal_answ": 121,
      "}<|end_facts|>": 122,
      "<|final_answ": 123,
      "<|user_prom": 124,
      "<|verified_facts|>{\"type\": \"": 125,
      "}<|end_facts|><|final_answ": 126,
      "}<|end_facts|><|final_answer|>": 127,
      "ul": 128,
      "pre": 129,
      "s ": 130,
      "\", \"": 131,
      ".\r\n": 132,
      "ag": 133,
      "gu": 134,
      "lan": 135,
      "guag": 136,
      "languag": 137,
      "fer": 138,
      "enc": 139,
      "prefer": 140,
      "preferenc": 141,
      "ri": 142,
      "th": 143,
      "00": 144,
      "at": 145,
      "ion": 146,
      "ch": 147,
      "od": 148,
      " is ": 149,
      "cal": 150,
      "r ": 151,
      "\": \"": 152,
      "\"}<|end_facts|><|final_answer|>": 153,
      "d ": 154,
      "ue\": \"": 155,
      "value\": \"": 156,
      "n ": 157,
      "to": 158,
      "e\", \"value\": \"": 159,
      "Ja": 160,
      "va": 161,
      "Java": 162,
      "ation": 163,
      "ev": 164,
      "tri": 165,
      "retri": 166,
      "retriev": 167,
      "em": 168,
      "ax": 169,
      "ck": 170,
      "cod": 171,
      "eck": 172,
      "id": 173,
      "nt": 174,
      "sy": 175,
      "valid": 176,
      "language\": \"": 177,
      "check": 178,
      "ntax": 179,
      "syntax": 180,
      "\":": 181,
      "\": ": 182,
      " re": 183,
      "ey": 184,
      "ed ": 185,
      "key": 186,
      "ou": 187,
      "you": 188,
      "d_preferenc": 189,
      "e\", \"key": 190,
      "ed you": 191,
      "d_preference\", \"key": 192,
      "ed your ": 193,
      "d_preference\", \"key\": \"": 194,
      "cul": 195,
      "sul": 196,
      "resul": 197,
      "calcul": 198,
      "result": 199,
      " in ": 200,
      "ss": 201,
      "rk": 202,
      "sto": 203,
      "store": 204,
      "el": 205,
      " o": 206,
      "500": 207,
      "f ": 208,
      " of ": 209,
      "Py": 210,
      "thon": 211,
      "Python": 212,
      "cri": 213,
      "scri": 214,
      "Javascri": 215,
      "Javascript": 216,
      "am": 217,
      "nam": 218,
      "usernam": 219,
      "_s": 220,
      "cation": 221,
      "fon": 222,
      "iz": 223,
      "no": 224,
      "tifi": 225,
      "t_s": 226,
      "font_s": 227,
      "notifi": 228,
      "font_siz": 229,
      "notification": 230,
      "En": 231,
      "gl": 232,
      "is": 233,
      "Engl": 234,
      "ish": 235,
      "English": 236,
      "them": 237,
      "ork": 238,
      "pac": 239,
      "spac": 240,
      "work": 241,
      "workspac": 242,
      "Rus": 243,
      "Rust": 244,
      "<|user_prompt|>retriev": 245,
      "I re": 246,
      "ed_preference\", \"key\": \"": 247,
      "hi": 248,
      "led your ": 249,
      "my": 250,
      "whi": 251,
      "e my": 252,
      "<|verified_facts|>{\"type\": \"retriev": 253,
      "ch is ": 254,
      "called your ": 255,
      "\"}<|end_facts|><|final_answer|>I re": 256,
      "<|user_prompt|>retrieve my": 257,
      "which is ": 258,
      "<|verified_facts|>{\"type\": \"retrieved_preference\", \"key\": \"": 259,
      "\"}<|end_facts|><|final_answer|>I recalled your ": 260,
      "<|user_prompt|>retrieve my ": 261,
      "<|user_prompt|>check": 262,
      " {\"type\": \"": 263,
      " cod": 264,
      "\"}": 265,
      ", {\"type\": \"": 266,
      "Cod": 267,
      "_languag": 268,
      "_check": 269,
      "e}<|end_facts|><|final_answer|>": 270,
      "e_languag": 271,
      "fo": 272,
      "ru": 273,
      "tru": 274,
      "e syntax": 275,
      "e fo": 276,
      "e\", \"language\": \"": 277,
      "<|verified_facts|>{\"type\": \"cod": 278,
      "\", \"valid": 279,
      "\", \"language\": \"": 280,
      " is valid": 281,
      "syntax_check": 282,
      "\": tru": 283,
      "<|user_prompt|>check cod": 284,
      "\"}, {\"type\": \"": 285,
      "Code syntax": 286,
      "e}<|end_facts|><|final_answer|>Code syntax": 287,
      "e_language\", \"language\": \"": 288,
      "e for ": 289,
      "<|verified_facts|>{\"type\": \"code_language\", \"language\": \"": 290,
      "\", \"valid\": tru": 291,
      " is valid.\r\n": 292,
      "syntax_check\", \"language\": \"": 293,
      "<|user_prompt|>check code for ": 294,
      "\"}, {\"type\": \"syntax_check\", \"language\": \"": 295,
      "e}<|end_facts|><|final_answer|>Code syntax in ": 296,
      "\", \"valid\": true}<|end_facts|><|final_answer|>Code syntax in ": 297,
      "<|user_prompt|>calcul": 298,
      "Th": 299,
      "ex": 300,
      "e result": 301,
      "<|verified_facts|>{\"type\": \"calcul": 302,
      "}<|end_facts|><|final_answer|>Th": 303,
      "press": 304,
      "\", \"result": 305,
      "\", \"ex": 306,
      "ate ": 307,
      "ion\": \"": 308,
      "ation\", \"ex": 309,
      "<|user_prompt|>calculate ": 310,
      "e result of ": 311,
      "<|verified_facts|>{\"type\": \"calculation\", \"ex": 312,
      "}<|end_facts|><|final_answer|>The result of ": 313,
      "pression\": \"": 314,
      "\", \"result\": ": 315,
      "<|verified_facts|>{\"type\": \"calculation\", \"expression\": \"": 316,
      "++": 317,
      "C++": 318,
      "100": 319,
      "<|user_prompt|>store": 320,
      " preferenc": 321,
      "Su": 322,
      "as ": 323,
      "ber": 324,
      "cc": 325,
      "e.\r\n": 326,
      "ess": 327,
      "ful": 328,
      "ly": 329,
      "mem": 330,
      "<|verified_facts|>{\"type\": \"store": 331,
      "preference.\r\n": 332,
      "\"}<|end_facts|><|final_answer|>Su": 333,
      " remem": 334,
      "<|user_prompt|>store preferenc": 335,
      "bered your ": 336,
      "ccess": 337,
      "fully": 338,
      "<|verified_facts|>{\"type\": \"stored_preference\", \"key\": \"": 339,
      "\"}<|end_facts|><|final_answer|>Success": 340,
      " remembered your ": 341,
      "<|user_prompt|>store preference ": 342,
      "fully remembered your ": 343,
      "\"}<|end_facts|><|final_answer|>Successfully remembered your ": 344,
      "<|user_prompt|>g": 345,
      " an": 346,
      " th": 347,
      "!\r\n": 348,
      "35": 349,
      "Hel": 350,
      "com": 351,
      "et": 352,
      "in ": 353,
      "lo": 354,
      "wel": 355,
      "reet": 356,
      "e user": 357,
      "e in ": 358,
      "<|verified_facts|>{\"type\": \"languag": 359,
      "\"}<|end_facts|><|final_answer|>Hel": 360,
      "d wel": 361,
      "<|user_prompt|>greet": 362,
      " and wel": 363,
      " the user": 364,
      "come in ": 365,
      "lo and wel": 366,
      "<|verified_facts|>{\"type\": \"language\", \"value\": \"": 367,
      "\"}<|end_facts|><|final_answer|>Hello and wel": 368,
      "<|user_prompt|>greet the user": 369,
      "\"}<|end_facts|><|final_answer|>Hello and welcome in ": 370,
      "<|user_prompt|>greet the user in ": 371,
      "e<|verified_facts|>{\"type\": \"retrieved_preference\", \"key\": \"": 372,
      "e which is ": 373,
      "Jen": 374,
      "il": 375,
      "Jenil": 376,
      "14": 377,
      "ab": 378,
      "ed": 379,
      "led": 380,
      "px": 381,
      "enab": 382,
      "14px": 383,
      "enabled": 384,
      "ark": 385,
      "dark": 386,
      "de": 387,
      "kto": 388,
      "skto": 389,
      "deskto": 390,
      "desktop": 391,
      "e as ": 392,
      "e preference.\r\n": 393,
      " +": 394,
      " 2": 395,
      "% of ": 396,
      "18": 397,
      "2500": 398,
      "2 +": 399,
      "% of 2500": 400,
      "18% of 2500": 401,
      "2 + 2": 402,
      "18% of 25000": 403,
      "notifications": 404,
      "notifications ": 405,
      " -": 406,
      " 35": 407,
      "100 -": 408,
      "100 - 35": 409,
      " /": 410,
      " 5": 411,
      "500 /": 412,
      "500 / 5": 413,
      " *": 414,
      " 1": 415,
      "23": 416,
      "45": 417,
      " * 1": 418,
      "45 * 1": 419,
      "45 * 123": 420,
      "4500": 421,
      "e\", \"value\": \"Jenil": 422,
      "username\", \"value\": \"Jenil": 423,
      "\", \"value\": \"": 424,
      "e\", \"value\": \"14px": 425,
      "font_size\", \"value\": \"14px": 426,
      "notifications\", \"value\": \"": 427,
      "notifications\", \"value\": \"enabled": 428,
      "65": 429,
      "e\", \"value\": \"dark": 430,
      "theme\", \"value\": \"dark": 431,
      "e\", \"value\": \"desktop": 432,
      "workspace\", \"value\": \"desktop": 433,
      "55": 434,
      "5535": 435,
      "username<|verified_facts|>{\"type\": \"retrieved_preference\", \"key\": \"": 436,
      "username which is ": 437,
      "\"}<|end_facts|><|final_answer|>I recalled your username which is ": 438,
      "<|user_prompt|>retrieve my username<|verified_facts|>{\"type\": \"retrieved_preference\", \"key\": \"": 439,
      "Jenil.\r\n": 440,
      "username\", \"value\": \"Jenil\"}<|end_facts|><|final_answer|>I recalled your username which is ": 441,
      "<|user_prompt|>retrieve my username<|verified_facts|>{\"type\": \"retrieved_preference\", \"key\": \"username\", \"value\": \"Jenil\"}<|end_facts|><|final_answer|>I recalled your username which is ": 442,
      "<|user_prompt|>retrieve my username<|verified_facts|>{\"type\": \"retrieved_preference\", \"key\": \"username\", \"value\": \"Jenil\"}<|end_facts|><|final_answer|>I recalled your username which is Jenil.\r\n": 443,
      "4.\r\n": 444,
      "4}<|end_facts|><|final_answer|>The result of ": 445,
      " is 4500": 446,
      " is 4.\r\n": 447,
      "font_size<|verified_facts|>{\"type\": \"retrieved_preference\", \"key\": \"": 448,
      "font_size which is ": 449,
      "theme<|verified_facts|>{\"type\": \"retrieved_preference\", \"key\": \"": 450,
      "theme which is ": 451,
      "\"}<|end_facts|><|final_answer|>I recalled your font_size which is ": 452,
      "\"}<|end_facts|><|final_answer|>I recalled your theme which is ": 453,
      "<|user_prompt|>retrieve my font_size<|verified_facts|>{\"type\": \"retrieved_preference\", \"key\": \"": 454,
      "<|user_prompt|>retrieve my theme<|verified_facts|>{\"type\": \"retrieved_preference\", \"key\": \"": 455,
      "<|user_prompt|>calculate 2 + 2": 456,
      "<|user_prompt|>calculate 18% of 25000": 457,
      "}<|end_facts|><|final_answer|>The result of 18% of 25000": 458,
      "\", \"result\": 4500": 459,
      "\", \"result\": 4}<|end_facts|><|final_answer|>The result of ": 460,
      "<|verified_facts|>{\"type\": \"calculation\", \"expression\": \"2 + 2": 461,
      "<|verified_facts|>{\"type\": \"calculation\", \"expression\": \"18% of 25000": 462,
      "14px.\r\n": 463,
      "dark.\r\n": 464,
      "2 + 2 is 4.\r\n": 465,
      "font_size\", \"value\": \"14px\"}<|end_facts|><|final_answer|>I recalled your font_size which is ": 466,
      "theme\", \"value\": \"dark\"}<|end_facts|><|final_answer|>I recalled your theme which is ": 467,
      " is 4500.\r\n": 468,
      "<|user_prompt|>retrieve my font_size<|verified_facts|>{\"type\": \"retrieved_preference\", \"key\": \"font_size\", \"value\": \"14px\"}<|end_facts|><|final_answer|>I recalled your font_size which is ": 469,
      "<|user_prompt|>retrieve my theme<|verified_facts|>{\"type\": \"retrieved_preference\", \"key\": \"theme\", \"value\": \"dark\"}<|end_facts|><|final_answer|>I recalled your theme which is ": 470,
      "<|user_prompt|>calculate 2 + 2<|verified_facts|>{\"type\": \"calculation\", \"expression\": \"2 + 2": 471,
      "<|user_prompt|>calculate 18% of 25000<|verified_facts|>{\"type\": \"calculation\", \"expression\": \"18% of 25000": 472,
      "}<|end_facts|><|final_answer|>The result of 18% of 25000 is 4500.\r\n": 473,
      "\", \"result\": 4500}<|end_facts|><|final_answer|>The result of 18% of 25000 is 4500.\r\n": 474,
      "\", \"result\": 4}<|end_facts|><|final_answer|>The result of 2 + 2 is 4.\r\n": 475,
      "<|user_prompt|>retrieve my font_size<|verified_facts|>{\"type\": \"retrieved_preference\", \"key\": \"font_size\", \"value\": \"14px\"}<|end_facts|><|final_answer|>I recalled your font_size which is 14px.\r\n": 476,
      "<|user_prompt|>retrieve my theme<|verified_facts|>{\"type\": \"retrieved_preference\", \"key\": \"theme\", \"value\": \"dark\"}<|end_facts|><|final_answer|>I recalled your theme which is dark.\r\n": 477,
      "<|user_prompt|>calculate 2 + 2<|verified_facts|>{\"type\": \"calculation\", \"expression\": \"2 + 2\", \"result\": 4}<|end_facts|><|final_answer|>The result of 2 + 2 is 4.\r\n": 478,
      "<|user_prompt|>calculate 18% of 25000<|verified_facts|>{\"type\": \"calculation\", \"expression\": \"18% of 25000\", \"result\": 4500}<|end_facts|><|final_answer|>The result of 18% of 25000 is 4500.\r\n": 479,
      "workspace as ": 480,
      "workspace preference.\r\n": 481,
      "which is enabled": 482,
      "<|verified_facts|>{\"type\": \"retrieved_preference\", \"key\": \"notifications\", \"value\": \"enabled": 483,
      "\"}<|end_facts|><|final_answer|>I recalled your notifications ": 484,
      "<|user_prompt|>retrieve my notifications": 485,
      "<|verified_facts|>{\"type\": \"stored_preference\", \"key\": \"workspace\", \"value\": \"desktop": 486,
      "<|user_prompt|>store preference workspace as ": 487,
      "\"}<|end_facts|><|final_answer|>Successfully remembered your workspace preference.\r\n": 488,
      "desktop<|verified_facts|>{\"type\": \"stored_preference\", \"key\": \"workspace\", \"value\": \"desktop": 489,
      "which is enabled.\r\n": 490,
      "<|verified_facts|>{\"type\": \"retrieved_preference\", \"key\": \"notifications\", \"value\": \"enabled\"}<|end_facts|><|final_answer|>I recalled your notifications ": 491,
      "<|user_prompt|>retrieve my notifications<|verified_facts|>{\"type\": \"retrieved_preference\", \"key\": \"notifications\", \"value\": \"enabled\"}<|end_facts|><|final_answer|>I recalled your notifications ": 492,
      "<|user_prompt|>store preference workspace as desktop<|verified_facts|>{\"type\": \"stored_preference\", \"key\": \"workspace\", \"value\": \"desktop": 493,
      "<|user_prompt|>retrieve my notifications<|verified_facts|>{\"type\": \"retrieved_preference\", \"key\": \"notifications\", \"value\": \"enabled\"}<|end_facts|><|final_answer|>I recalled your notifications which is enabled.\r\n": 494,
      "<|user_prompt|>store preference workspace as desktop<|verified_facts|>{\"type\": \"stored_preference\", \"key\": \"workspace\", \"value\": \"desktop\"}<|end_facts|><|final_answer|>Successfully remembered your workspace preference.\r\n": 495,
      "Python!\r\n": 496,
      "Python<|verified_facts|>{\"type\": \"language\", \"value\": \"": 497,
      "Python\"}<|end_facts|><|final_answer|>Hello and welcome in ": 498,
      "Javascript<|verified_facts|>{\"type\": \"code_language\", \"language\": \"": 499,
      "Javascript is valid.\r\n": 500,
      "Javascript\"}, {\"type\": \"syntax_check\", \"language\": \"": 501,
      "Javascript\", \"valid\": true}<|end_facts|><|final_answer|>Code syntax in ": 502,
      "<|user_prompt|>check code for Javascript<|verified_facts|>{\"type\": \"code_language\", \"language\": \"": 503,
      "<|user_prompt|>greet the user in Python<|verified_facts|>{\"type\": \"language\", \"value\": \"": 504,
      "Python\"}<|end_facts|><|final_answer|>Hello and welcome in Python!\r\n": 505,
      "Javascript\"}, {\"type\": \"syntax_check\", \"language\": \"Javascript\", \"valid\": true}<|end_facts|><|final_answer|>Code syntax in ": 506,
      "<|user_prompt|>check code for Javascript<|verified_facts|>{\"type\": \"code_language\", \"language\": \"Javascript\"}, {\"type\": \"syntax_check\", \"language\": \"Javascript\", \"valid\": true}<|end_facts|><|final_answer|>Code syntax in ": 507,
      "<|user_prompt|>greet the user in Python<|verified_facts|>{\"type\": \"language\", \"value\": \"Python\"}<|end_facts|><|final_answer|>Hello and welcome in Python!\r\n": 508,
      "<|user_prompt|>check code for Javascript<|verified_facts|>{\"type\": \"code_language\", \"language\": \"Javascript\"}, {\"type\": \"syntax_check\", \"language\": \"Javascript\", \"valid\": true}<|end_facts|><|final_answer|>Code syntax in Javascript is valid.\r\n": 509,
      " is 65": 510,
      "<|user_prompt|>calculate 100 - 35": 511,
      "}<|end_facts|><|final_answer|>The result of 100 - 35": 512,
      "\", \"result\": 65": 513,
      "<|verified_facts|>{\"type\": \"calculation\", \"expression\": \"100 - 35": 514,
      "as enabled": 515,
      "<|verified_facts|>{\"type\": \"stored_preference\", \"key\": \"notifications\", \"value\": \"enabled": 516,
      "<|user_prompt|>store preference notifications ": 517,
      "\"}<|end_facts|><|final_answer|>Successfully remembered your notifications ": 518,
      " is 65.\r\n": 519,
      "<|user_prompt|>calculate 100 - 35<|verified_facts|>{\"type\": \"calculation\", \"expression\": \"100 - 35": 520,
      "}<|end_facts|><|final_answer|>The result of 100 - 35 is 65.\r\n": 521,
      "\", \"result\": 65}<|end_facts|><|final_answer|>The result of 100 - 35 is 65.\r\n": 522,
      "as enabled<|verified_facts|>{\"type\": \"stored_preference\", \"key\": \"notifications\", \"value\": \"enabled": 523,
      "<|user_prompt|>store preference notifications as enabled<|verified_facts|>{\"type\": \"stored_preference\", \"key\": \"notifications\", \"value\": \"enabled": 524,
      "\"}<|end_facts|><|final_answer|>Successfully remembered your notifications preference.\r\n": 525,
      "<|user_prompt|>calculate 100 - 35<|verified_facts|>{\"type\": \"calculation\", \"expression\": \"100 - 35\", \"result\": 65}<|end_facts|><|final_answer|>The result of 100 - 35 is 65.\r\n": 526,
      "<|user_prompt|>store preference notifications as enabled<|verified_facts|>{\"type\": \"stored_preference\", \"key\": \"notifications\", \"value\": \"enabled\"}<|end_facts|><|final_answer|>Successfully remembered your notifications preference.\r\n": 527,
      "username as ": 528,
      "username preference.\r\n": 529,
      "<|verified_facts|>{\"type\": \"stored_preference\", \"key\": \"username\", \"value\": \"Jenil": 530,
      "<|user_prompt|>store preference username as ": 531,
      "\"}<|end_facts|><|final_answer|>Successfully remembered your username preference.\r\n": 532,
      "Jenil<|verified_facts|>{\"type\": \"stored_preference\", \"key\": \"username\", \"value\": \"Jenil": 533,
      "<|user_prompt|>store preference username as Jenil<|verified_facts|>{\"type\": \"stored_preference\", \"key\": \"username\", \"value\": \"Jenil": 534,
      "<|user_prompt|>store preference username as Jenil<|verified_facts|>{\"type\": \"stored_preference\", \"key\": \"username\", \"value\": \"Jenil\"}<|end_facts|><|final_answer|>Successfully remembered your username preference.\r\n": 535,
      "font_size as ": 536,
      "font_size preference.\r\n": 537,
      "English<|verified_facts|>{\"type\": \"code_language\", \"language\": \"": 538,
      "English is valid.\r\n": 539,
      "English\"}, {\"type\": \"syntax_check\", \"language\": \"": 540,
      "English\", \"valid\": true}<|end_facts|><|final_answer|>Code syntax in ": 541,
      "<|user_prompt|>check code for English<|verified_facts|>{\"type\": \"code_language\", \"language\": \"": 542,
      "<|verified_facts|>{\"type\": \"stored_preference\", \"key\": \"font_size\", \"value\": \"14px": 543,
      "<|user_prompt|>store preference font_size as ": 544,
      "\"}<|end_facts|><|final_answer|>Successfully remembered your font_size preference.\r\n": 545,
      "14px<|verified_facts|>{\"type\": \"stored_preference\", \"key\": \"font_size\", \"value\": \"14px": 546,
      "English\"}, {\"type\": \"syntax_check\", \"language\": \"English\", \"valid\": true}<|end_facts|><|final_answer|>Code syntax in ": 547,
      "<|user_prompt|>check code for English<|verified_facts|>{\"type\": \"code_language\", \"language\": \"English\"}, {\"type\": \"syntax_check\", \"language\": \"English\", \"valid\": true}<|end_facts|><|final_answer|>Code syntax in ": 548,
      "<|user_prompt|>store preference font_size as 14px<|verified_facts|>{\"type\": \"stored_preference\", \"key\": \"font_size\", \"value\": \"14px": 549,
      "<|user_prompt|>check code for English<|verified_facts|>{\"type\": \"code_language\", \"language\": \"English\"}, {\"type\": \"syntax_check\", \"language\": \"English\", \"valid\": true}<|end_facts|><|final_answer|>Code syntax in English is valid.\r\n": 550,
      "<|user_prompt|>store preference font_size as 14px<|verified_facts|>{\"type\": \"stored_preference\", \"key\": \"font_size\", \"value\": \"14px\"}<|end_facts|><|final_answer|>Successfully remembered your font_size preference.\r\n": 551,
      " is 100": 552,
      "Python<|verified_facts|>{\"type\": \"code_language\", \"language\": \"": 553,
      "Python is valid.\r\n": 554,
      "Python\"}, {\"type\": \"syntax_check\", \"language\": \"": 555,
      "Python\", \"valid\": true}<|end_facts|><|final_answer|>Code syntax in ": 556,
      "<|user_prompt|>check code for Python<|verified_facts|>{\"type\": \"code_language\", \"language\": \"": 557,
      "<|user_prompt|>calculate 500 / 5": 558,
      "}<|end_facts|><|final_answer|>The result of 500 / 5": 559,
      "\", \"result\": 100": 560,
      "<|verified_facts|>{\"type\": \"calculation\", \"expression\": \"500 / 5": 561,
      " is 100.\r\n": 562,
      "Python\"}, {\"type\": \"syntax_check\", \"language\": \"Python\", \"valid\": true}<|end_facts|><|final_answer|>Code syntax in ": 563,
      "<|user_prompt|>check code for Python<|verified_facts|>{\"type\": \"code_language\", \"language\": \"Python\"}, {\"type\": \"syntax_check\", \"language\": \"Python\", \"valid\": true}<|end_facts|><|final_answer|>Code syntax in ": 564,
      "<|user_prompt|>calculate 500 / 5<|verified_facts|>{\"type\": \"calculation\", \"expression\": \"500 / 5": 565,
      "}<|end_facts|><|final_answer|>The result of 500 / 5 is 100.\r\n": 566,
      "\", \"result\": 100}<|end_facts|><|final_answer|>The result of 500 / 5 is 100.\r\n": 567,
      "<|user_prompt|>check code for Python<|verified_facts|>{\"type\": \"code_language\", \"language\": \"Python\"}, {\"type\": \"syntax_check\", \"language\": \"Python\", \"valid\": true}<|end_facts|><|final_answer|>Code syntax in Python is valid.\r\n": 568,
      "<|user_prompt|>calculate 500 / 5<|verified_facts|>{\"type\": \"calculation\", \"expression\": \"500 / 5\", \"result\": 100}<|end_facts|><|final_answer|>The result of 500 / 5 is 100.\r\n": 569,
      "Rust<|verified_facts|>{\"type\": \"code_language\", \"language\": \"": 570,
      "Rust is valid.\r\n": 571,
      "Rust\"}, {\"type\": \"syntax_check\", \"language\": \"": 572,
      "Rust\", \"valid\": true}<|end_facts|><|final_answer|>Code syntax in ": 573,
      "<|user_prompt|>check code for Rust<|verified_facts|>{\"type\": \"code_language\", \"language\": \"": 574,
      "Rust\"}, {\"type\": \"syntax_check\", \"language\": \"Rust\", \"valid\": true}<|end_facts|><|final_answer|>Code syntax in ": 575,
      "<|user_prompt|>check code for Rust<|verified_facts|>{\"type\": \"code_language\", \"language\": \"Rust\"}, {\"type\": \"syntax_check\", \"language\": \"Rust\", \"valid\": true}<|end_facts|><|final_answer|>Code syntax in ": 576,
      "<|user_prompt|>check code for Rust<|verified_facts|>{\"type\": \"code_language\", \"language\": \"Rust\"}, {\"type\": \"syntax_check\", \"language\": \"Rust\", \"valid\": true}<|end_facts|><|final_answer|>Code syntax in Rust is valid.\r\n": 577,
      "workspace<|verified_facts|>{\"type\": \"retrieved_preference\", \"key\": \"": 578,
      "workspace which is ": 579,
      "\"}<|end_facts|><|final_answer|>I recalled your workspace which is ": 580,
      "<|user_prompt|>retrieve my workspace<|verified_facts|>{\"type\": \"retrieved_preference\", \"key\": \"": 581,
      "desktop.\r\n": 582,
      "workspace\", \"value\": \"desktop\"}<|end_facts|><|final_answer|>I recalled your workspace which is ": 583,
      "<|user_prompt|>retrieve my workspace<|verified_facts|>{\"type\": \"retrieved_preference\", \"key\": \"workspace\", \"value\": \"desktop\"}<|end_facts|><|final_answer|>I recalled your workspace which is ": 584,
      "<|user_prompt|>retrieve my workspace<|verified_facts|>{\"type\": \"retrieved_preference\", \"key\": \"workspace\", \"value\": \"desktop\"}<|end_facts|><|final_answer|>I recalled your workspace which is desktop.\r\n": 585,
      "Java<|verified_facts|>{\"type\": \"code_language\", \"language\": \"": 586,
      "Java is valid.\r\n": 587,
      "Java\"}, {\"type\": \"syntax_check\", \"language\": \"": 588,
      "Java\", \"valid\": true}<|end_facts|><|final_answer|>Code syntax in ": 589,
      "theme as ": 590,
      "theme preference.\r\n": 591,
      "<|user_prompt|>check code for Java<|verified_facts|>{\"type\": \"code_language\", \"language\": \"": 592,
      "<|verified_facts|>{\"type\": \"stored_preference\", \"key\": \"theme\", \"value\": \"dark": 593,
      "<|user_prompt|>store preference theme as ": 594,
      "\"}<|end_facts|><|final_answer|>Successfully remembered your theme preference.\r\n": 595,
      "dark<|verified_facts|>{\"type\": \"stored_preference\", \"key\": \"theme\", \"value\": \"dark": 596,
      "Java\"}, {\"type\": \"syntax_check\", \"language\": \"Java\", \"valid\": true}<|end_facts|><|final_answer|>Code syntax in ": 597,
      "<|user_prompt|>check code for Java<|verified_facts|>{\"type\": \"code_language\", \"language\": \"Java\"}, {\"type\": \"syntax_check\", \"language\": \"Java\", \"valid\": true}<|end_facts|><|final_answer|>Code syntax in ": 598,
      "<|user_prompt|>store preference theme as dark<|verified_facts|>{\"type\": \"stored_preference\", \"key\": \"theme\", \"value\": \"dark": 599,
      "<|user_prompt|>check code for Java<|verified_facts|>{\"type\": \"code_language\", \"language\": \"Java\"}, {\"type\": \"syntax_check\", \"language\": \"Java\", \"valid\": true}<|end_facts|><|final_answer|>Code syntax in Java is valid.\r\n": 600,
      "<|user_prompt|>store preference theme as dark<|verified_facts|>{\"type\": \"stored_preference\", \"key\": \"theme\", \"value\": \"dark\"}<|end_facts|><|final_answer|>Successfully remembered your theme preference.\r\n": 601,
      " is 5535": 602,
      "English!\r\n": 603,
      "English<|verified_facts|>{\"type\": \"language\", \"value\": \"": 604,
      "English\"}<|end_facts|><|final_answer|>Hello and welcome in ": 605,
      "<|user_prompt|>calculate 45 * 123": 606,
      "}<|end_facts|><|final_answer|>The result of 45 * 123": 607,
      "\", \"result\": 5535": 608,
      "<|verified_facts|>{\"type\": \"calculation\", \"expression\": \"45 * 123": 609,
      "<|user_prompt|>greet the user in English<|verified_facts|>{\"type\": \"language\", \"value\": \"": 610,
      " is 5535.\r\n": 611,
      "English\"}<|end_facts|><|final_answer|>Hello and welcome in English!\r\n": 612,
      "<|user_prompt|>calculate 45 * 123<|verified_facts|>{\"type\": \"calculation\", \"expression\": \"45 * 123": 613,
      "}<|end_facts|><|final_answer|>The result of 45 * 123 is 5535.\r\n": 614,
      "\", \"result\": 5535}<|end_facts|><|final_answer|>The result of 45 * 123 is 5535.\r\n": 615,
      "<|user_prompt|>greet the user in English<|verified_facts|>{\"type\": \"language\", \"value\": \"English\"}<|end_facts|><|final_answer|>Hello and welcome in English!\r\n": 616,
      "<|user_prompt|>calculate 45 * 123<|verified_facts|>{\"type\": \"calculation\", \"expression\": \"45 * 123\", \"result\": 5535}<|end_facts|><|final_answer|>The result of 45 * 123 is 5535.\r\n": 617,
      "Javascript!\r\n": 618,
      "Javascript<|verified_facts|>{\"type\": \"language\", \"value\": \"": 619,
      "Javascript\"}<|end_facts|><|final_answer|>Hello and welcome in ": 620,
      "<|user_prompt|>greet the user in Javascript<|verified_facts|>{\"type\": \"language\", \"value\": \"": 621,
      "Javascript\"}<|end_facts|><|final_answer|>Hello and welcome in Javascript!\r\n": 622,
      "<|user_prompt|>greet the user in Javascript<|verified_facts|>{\"type\": \"language\", \"value\": \"Javascript\"}<|end_facts|><|final_answer|>Hello and welcome in Javascript!\r\n": 623,
      "C++!\r\n": 624,
      "C++<|verified_facts|>{\"type\": \"language\", \"value\": \"": 625,
      "C++\"}<|end_facts|><|final_answer|>Hello and welcome in ": 626,
      "<|user_prompt|>greet the user in C++<|verified_facts|>{\"type\": \"language\", \"value\": \"": 627,
      "C++\"}<|end_facts|><|final_answer|>Hello and welcome in C++!\r\n": 628,
      "<|user_prompt|>greet the user in C++<|verified_facts|>{\"type\": \"language\", \"value\": \"C++\"}<|end_facts|><|final_answer|>Hello and welcome in C++!\r\n": 629,
      "Rust!\r\n": 630,
      "Rust<|verified_facts|>{\"type\": \"language\", \"value\": \"": 631,
      "Rust\"}<|end_facts|><|final_answer|>Hello and welcome in ": 632,
      "<|user_prompt|>greet the user in Rust<|verified_facts|>{\"type\": \"language\", \"value\": \"": 633,
      "Rust\"}<|end_facts|><|final_answer|>Hello and welcome in Rust!\r\n": 634,
      "<|user_prompt|>greet the user in Rust<|verified_facts|>{\"type\": \"language\", \"value\": \"Rust\"}<|end_facts|><|final_answer|>Hello and welcome in Rust!\r\n": 635,
      "<|verified_facts|>{\"type\": \"code_language\", \"language\": \"C++": 636,
      "<|user_prompt|>check code for C++": 637,
      "\"}, {\"type\": \"syntax_check\", \"language\": \"C++": 638,
      "\", \"valid\": true}<|end_facts|><|final_answer|>Code syntax in C++": 639,
      "<|verified_facts|>{\"type\": \"code_language\", \"language\": \"C++\"}, {\"type\": \"syntax_check\", \"language\": \"C++": 640,
      "<|user_prompt|>check code for C++<|verified_facts|>{\"type\": \"code_language\", \"language\": \"C++\"}, {\"type\": \"syntax_check\", \"language\": \"C++": 641,
      "\", \"valid\": true}<|end_facts|><|final_answer|>Code syntax in C++ is valid.\r\n": 642,
      "<|user_prompt|>check code for C++<|verified_facts|>{\"type\": \"code_language\", \"language\": \"C++\"}, {\"type\": \"syntax_check\", \"language\": \"C++\", \"valid\": true}<|end_facts|><|final_answer|>Code syntax in C++ is valid.\r\n": 643,
      "Java!\r\n": 644,
      "Java<|verified_facts|>{\"type\": \"language\", \"value\": \"": 645,
      "Java\"}<|end_facts|><|final_answer|>Hello and welcome in ": 646,
      "<|user_prompt|>greet the user in Java<|verified_facts|>{\"type\": \"language\", \"value\": \"": 647,
      "Java\"}<|end_facts|><|final_answer|>Hello and welcome in Java!\r\n": 648,
      "<|user_prompt|>greet the user in Java<|verified_facts|>{\"type\": \"language\", \"value\": \"Java\"}<|end_facts|><|final_answer|>Hello and welcome in Java!\r\n": 649
    },
    "merges": [
      [
        " ",
        "\""
      ],
      [
        "e",
        "r"
      ],
      [
        "<",
        "|"
      ],
      [
        "|",
        ">"
      ],
      [
        "e",
        "\""
      ],
      [
        ":",
        " \""
      ],
      [
        "r",
        "e"
      ],
      [
        "a",
        "l"
      ],
      [
        "d",
        "_"
      ],
      [
        "f",
        "i"
      ],
      [
        "a",
        "c"
      ],
      [
        "e\"",
        ": \""
      ],
      [
        "e",
        "n"
      ],
      [
        "e",
        " "
      ],
      [
        ",",
        " \""
      ],
      [
        "f",
        "ac"
      ],
      [
        "s",
        "|>"
      ],
      [
        "t",
        "s|>"
      ],
      [
        "d_",
        "fac"
      ],
      [
        "d_fac",
        "ts|>"
      ],
      [
        "a",
        "n"
      ],
      [
        "u",
        "s"
      ],
      [
        "us",
        "er"
      ],
      [
        "p",
        "t"
      ],
      [
        "i",
        "fi"
      ],
      [
        "\"",
        "t"
      ],
      [
        "p",
        "e\": \""
      ],
      [
        "y",
        "pe\": \""
      ],
      [
        "{",
        "\"t"
      ],
      [
        "{\"t",
        "ype\": \""
      ],
      [
        "o",
        "m"
      ],
      [
        "o",
        "n"
      ],
      [
        "e\"",
        ", \""
      ],
      [
        " ",
        "i"
      ],
      [
        "v",
        "al"
      ],
      [
        "\r",
        "\n"
      ],
      [
        "_",
        "p"
      ],
      [
        "_",
        "an"
      ],
      [
        "e",
        "d_facts|>"
      ],
      [
        "n",
        "al"
      ],
      [
        "r",
        "om"
      ],
      [
        "s",
        "w"
      ],
      [
        "v",
        "er"
      ],
      [
        "}",
        "<|"
      ],
      [
        "er",
        "|>"
      ],
      [
        "<|",
        "fi"
      ],
      [
        "<|",
        "user"
      ],
      [
        "<|",
        "ver"
      ],
      [
        "en",
        "d_facts|>"
      ],
      [
        "pt",
        "|>"
      ],
      [
        "ifi",
        "ed_facts|>"
      ],
      [
        "_p",
        "rom"
      ],
      [
        "_an",
        "sw"
      ],
      [
        "nal",
        "_answ"
      ],
      [
        "}<|",
        "end_facts|>"
      ],
      [
        "<|fi",
        "nal_answ"
      ],
      [
        "<|user",
        "_prom"
      ],
      [
        "<|ver",
        "ified_facts|>"
      ],
      [
        "<|verified_facts|>",
        "{\"type\": \""
      ],
      [
        "}<|end_facts|>",
        "<|final_answ"
      ],
      [
        "<|user_prom",
        "pt|>"
      ],
      [
        "}<|end_facts|><|final_answ",
        "er|>"
      ],
      [
        "u",
        "l"
      ],
      [
        "p",
        "re"
      ],
      [
        "s",
        " "
      ],
      [
        "\"",
        ", \""
      ],
      [
        ".",
        "\r\n"
      ],
      [
        "a",
        "g"
      ],
      [
        "g",
        "u"
      ],
      [
        "l",
        "an"
      ],
      [
        "gu",
        "ag"
      ],
      [
        "lan",
        "guag"
      ],
      [
        "f",
        "er"
      ],
      [
        "en",
        "c"
      ],
      [
        "pre",
        "fer"
      ],
      [
        "prefer",
        "enc"
      ],
      [
        "r",
        "i"
      ],
      [
        "t",
        "h"
      ],
      [
        "0",
        "0"
      ],
      [
        "a",
        "t"
      ],
      [
        "i",
        "on"
      ],
      [
        "c",
        "h"
      ],
      [
        "o",
        "d"
      ],
      [
        " i",
        "s "
      ],
      [
        "c",
        "al"
      ],
      [
        "r",
        " "
      ],
      [
        "\"",
        ": \""
      ],
      [
        "\"",
        "}<|end_facts|><|final_answer|>"
      ],
      [
        "d",
        " "
      ],
      [
        "u",
        "e\": \""
      ],
      [
        "val",
        "ue\": \""
      ],
      [
        "n",
        " "
      ],
      [
        "t",
        "o"
      ],
      [
        "e\", \"",
        "value\": \""
      ],
      [
        "J",
        "a"
      ],
      [
        "v",
        "a"
      ],
      [
        "Ja",
        "va"
      ],
      [
        "at",
        "ion"
      ],
      [
        "e",
        "v"
      ],
      [
        "t",
        "ri"
      ],
      [
        "re",
        "tri"
      ],
      [
        "retri",
        "ev"
      ],
      [
        "e",
        "m"
      ],
      [
        "a",
        "x"
      ],
      [
        "c",
        "k"
      ],
      [
        "c",
        "od"
      ],
      [
        "e",
        "ck"
      ],
      [
        "i",
        "d"
      ],
      [
        "n",
        "t"
      ],
      [
        "s",
        "y"
      ],
      [
        "val",
        "id"
      ],
      [
        "languag",
        "e\": \""
      ],
      [
        "ch",
        "eck"
      ],
      [
        "nt",
        "ax"
      ],
      [
        "sy",
        "ntax"
      ],
      [
        "\"",
        ":"
      ],
      [
        "\":",
        " "
      ],
      [
        " ",
        "re"
      ],
      [
        "e",
        "y"
      ],
      [
        "e",
        "d "
      ],
      [
        "k",
        "ey"
      ],
      [
        "o",
        "u"
      ],
      [
        "y",
        "ou"
      ],
      [
        "d_",
        "preferenc"
      ],
      [
        "e\", \"",
        "key"
      ],
      [
        "ed ",
        "you"
      ],
      [
        "d_preferenc",
        "e\", \"key"
      ],
      [
        "ed you",
        "r "
      ],
      [
        "d_preference\", \"key",
        "\": \""
      ],
      [
        "c",
        "ul"
      ],
      [
        "s",
        "ul"
      ],
      [
        "re",
        "sul"
      ],
      [
        "cal",
        "cul"
      ],
      [
        "resul",
        "t"
      ],
      [
        " i",
        "n "
      ],
      [
        "s",
        "s"
      ],
      [
        "r",
        "k"
      ],
      [
        "s",
        "to"
      ],
      [
        "sto",
        "re"
      ],
      [
        "e",
        "l"
      ],
      [
        " ",
        "o"
      ],
      [
        "5",
        "00"
      ],
      [
        "f",
        " "
      ],
      [
        " o",
        "f "
      ],
      [
        "P",
        "y"
      ],
      [
        "th",
        "on"
      ],
      [
        "Py",
        "thon"
      ],
      [
        "c",
        "ri"
      ],
      [
        "s",
        "cri"
      ],
      [
        "Java",
        "scri"
      ],
      [
        "Javascri",
        "pt"
      ],
      [
        "a",
        "m"
      ],
      [
        "n",
        "am"
      ],
      [
        "user",
        "nam"
      ],
      [
        "_",
        "s"
      ],
      [
        "c",
        "ation"
      ],
      [
        "f",
        "on"
      ],
      [
        "i",
        "z"
      ],
      [
        "n",
        "o"
      ],
      [
        "t",
        "ifi"
      ],
      [
        "t",
        "_s"
      ],
      [
        "fon",
        "t_s"
      ],
      [
        "no",
        "tifi"
      ],
      [
        "font_s",
        "iz"
      ],
      [
        "notifi",
        "cation"
      ],
      [
        "E",
        "n"
      ],
      [
        "g",
        "l"
      ],
      [
        "i",
        "s"
      ],
      [
        "En",
        "gl"
      ],
      [
        "is",
        "h"
      ],
      [
        "Engl",
        "ish"
      ],
      [
        "th",
        "em"
      ],
      [
        "o",
        "rk"
      ],
      [
        "p",
        "ac"
      ],
      [
        "s",
        "pac"
      ],
      [
        "w",
        "ork"
      ],
      [
        "work",
        "spac"
      ],
      [
        "R",
        "us"
      ],
      [
        "Rus",
        "t"
      ],
      [
        "<|user_prompt|>",
        "retriev"
      ],
      [
        "I",
        " re"
      ],
      [
        "e",
        "d_preference\", \"key\": \""
      ],
      [
        "h",
        "i"
      ],
      [
        "l",
        "ed your "
      ],
      [
        "m",
        "y"
      ],
      [
        "w",
        "hi"
      ],
      [
        "e ",
        "my"
      ],
      [
        "<|verified_facts|>{\"type\": \"",
        "retriev"
      ],
      [
        "ch",
        " is "
      ],
      [
        "cal",
        "led your "
      ],
      [
        "\"}<|end_facts|><|final_answer|>",
        "I re"
      ],
      [
        "<|user_prompt|>retriev",
        "e my"
      ],
      [
        "whi",
        "ch is "
      ],
      [
        "<|verified_facts|>{\"type\": \"retriev",
        "ed_preference\", \"key\": \""
      ],
      [
        "\"}<|end_facts|><|final_answer|>I re",
        "called your "
      ],
      [
        "<|user_prompt|>retrieve my",
        " "
      ],
      [
        "<|user_prompt|>",
        "check"
      ],
      [
        " ",
        "{\"type\": \""
      ],
      [
        " ",
        "cod"
      ],
      [
        "\"",
        "}"
      ],
      [
        ",",
        " {\"type\": \""
      ],
      [
        "C",
        "od"
      ],
      [
        "_",
        "languag"
      ],
      [
        "_",
        "check"
      ],
      [
        "e",
        "}<|end_facts|><|final_answer|>"
      ],
      [
        "e",
        "_languag"
      ],
      [
        "f",
        "o"
      ],
      [
        "r",
        "u"
      ],
      [
        "t",
        "ru"
      ],
      [
        "e ",
        "syntax"
      ],
      [
        "e ",
        "fo"
      ],
      [
        "e\", \"",
        "language\": \""
      ],
      [
        "<|verified_facts|>{\"type\": \"",
        "cod"
      ],
      [
        "\", \"",
        "valid"
      ],
      [
        "\", \"",
        "language\": \""
      ],
      [
        " is ",
        "valid"
      ],
      [
        "syntax",
        "_check"
      ],
      [
        "\": ",
        "tru"
      ],
      [
        "<|user_prompt|>check",
        " cod"
      ],
      [
        "\"}",
        ", {\"type\": \""
      ],
      [
        "Cod",
        "e syntax"
      ],
      [
        "e}<|end_facts|><|final_answer|>",
        "Code syntax"
      ],
      [
        "e_languag",
        "e\", \"language\": \""
      ],
      [
        "e fo",
        "r "
      ],
      [
        "<|verified_facts|>{\"type\": \"cod",
        "e_language\", \"language\": \""
      ],
      [
        "\", \"valid",
        "\": tru"
      ],
      [
        " is valid",
        ".\r\n"
      ],
      [
        "syntax_check",
        "\", \"language\": \""
      ],
      [
        "<|user_prompt|>check cod",
        "e for "
      ],
      [
        "\"}, {\"type\": \"",
        "syntax_check\", \"language\": \""
      ],
      [
        "e}<|end_facts|><|final_answer|>Code syntax",
        " in "
      ],
      [
        "\", \"valid\": tru",
        "e}<|end_facts|><|final_answer|>Code syntax in "
      ],
      [
        "<|user_prompt|>",
        "calcul"
      ],
      [
        "T",
        "h"
      ],
      [
        "e",
        "x"
      ],
      [
        "e ",
        "result"
      ],
      [
        "<|verified_facts|>{\"type\": \"",
        "calcul"
      ],
      [
        "}<|end_facts|><|final_answer|>",
        "Th"
      ],
      [
        "pre",
        "ss"
      ],
      [
        "\", \"",
        "result"
      ],
      [
        "\", \"",
        "ex"
      ],
      [
        "at",
        "e "
      ],
      [
        "ion",
        "\": \""
      ],
      [
        "ation",
        "\", \"ex"
      ],
      [
        "<|user_prompt|>calcul",
        "ate "
      ],
      [
        "e result",
        " of "
      ],
      [
        "<|verified_facts|>{\"type\": \"calcul",
        "ation\", \"ex"
      ],
      [
        "}<|end_facts|><|final_answer|>Th",
        "e result of "
      ],
      [
        "press",
        "ion\": \""
      ],
      [
        "\", \"result",
        "\": "
      ],
      [
        "<|verified_facts|>{\"type\": \"calculation\", \"ex",
        "pression\": \""
      ],
      [
        "+",
        "+"
      ],
      [
        "C",
        "++"
      ],
      [
        "1",
        "00"
      ],
      [
        "<|user_prompt|>",
        "store"
      ],
      [
        " ",
        "preferenc"
      ],
      [
        "S",
        "u"
      ],
      [
        "a",
        "s "
      ],
      [
        "b",
        "er"
      ],
      [
        "c",
        "c"
      ],
      [
        "e",
        ".\r\n"
      ],
      [
        "e",
        "ss"
      ],
      [
        "f",
        "ul"
      ],
      [
        "l",
        "y"
      ],
      [
        "m",
        "em"
      ],
      [
        "<|verified_facts|>{\"type\": \"",
        "store"
      ],
      [
        "preferenc",
        "e.\r\n"
      ],
      [
        "\"}<|end_facts|><|final_answer|>",
        "Su"
      ],
      [
        " re",
        "mem"
      ],
      [
        "<|user_prompt|>store",
        " preferenc"
      ],
      [
        "ber",
        "ed your "
      ],
      [
        "cc",
        "ess"
      ],
      [
        "ful",
        "ly"
      ],
      [
        "<|verified_facts|>{\"type\": \"store",
        "d_preference\", \"key\": \""
      ],
      [
        "\"}<|end_facts|><|final_answer|>Su",
        "ccess"
      ],
      [
        " remem",
        "bered your "
      ],
      [
        "<|user_prompt|>store preferenc",
        "e "
      ],
      [
        "fully",
        " remembered your "
      ],
      [
        "\"}<|end_facts|><|final_answer|>Success",
        "fully remembered your "
      ],
      [
        "<|user_prompt|>",
        "g"
      ],
      [
        " ",
        "an"
      ],
      [
        " ",
        "th"
      ],
      [
        "!",
        "\r\n"
      ],
      [
        "3",
        "5"
      ],
      [
        "H",
        "el"
      ],
      [
        "c",
        "om"
      ],
      [
        "e",
        "t"
      ],
      [
        "i",
        "n "
      ],
      [
        "l",
        "o"
      ],
      [
        "w",
        "el"
      ],
      [
        "re",
        "et"
      ],
      [
        "e ",
        "user"
      ],
      [
        "e ",
        "in "
      ],
      [
        "<|verified_facts|>{\"type\": \"",
        "languag"
      ],
      [
        "\"}<|end_facts|><|final_answer|>",
        "Hel"
      ],
      [
        "d ",
        "wel"
      ],
      [
        "<|user_prompt|>g",
        "reet"
      ],
      [
        " an",
        "d wel"
      ],
      [
        " th",
        "e user"
      ],
      [
        "com",
        "e in "
      ],
      [
        "lo",
        " and wel"
      ],
      [
        "<|verified_facts|>{\"type\": \"languag",
        "e\", \"value\": \""
      ],
      [
        "\"}<|end_facts|><|final_answer|>Hel",
        "lo and wel"
      ],
      [
        "<|user_prompt|>greet",
        " the user"
      ],
      [
        "\"}<|end_facts|><|final_answer|>Hello and wel",
        "come in "
      ],
      [
        "<|user_prompt|>greet the user",
        " in "
      ],
      [
        "e",
        "<|verified_facts|>{\"type\": \"retrieved_preference\", \"key\": \""
      ],
      [
        "e ",
        "which is "
      ],
      [
        "J",
        "en"
      ],
      [
        "i",
        "l"
      ],
      [
        "Jen",
        "il"
      ],
      [
        "1",
        "4"
      ],
      [
        "a",
        "b"
      ],
      [
        "e",
        "d"
      ],
      [
        "l",
        "ed"
      ],
      [
        "p",
        "x"
      ],
      [
        "en",
        "ab"
      ],
      [
        "14",
        "px"
      ],
      [
        "enab",
        "led"
      ],
      [
        "a",
        "rk"
      ],
      [
        "d",
        "ark"
      ],
      [
        "d",
        "e"
      ],
      [
        "k",
        "to"
      ],
      [
        "s",
        "kto"
      ],
      [
        "de",
        "skto"
      ],
      [
        "deskto",
        "p"
      ],
      [
        "e ",
        "as "
      ],
      [
        "e ",
        "preference.\r\n"
      ],
      [
        " ",
        "+"
      ],
      [
        " ",
        "2"
      ],
      [
        "%",
        " of "
      ],
      [
        "1",
        "8"
      ],
      [
        "2",
        "500"
      ],
      [
        "2",
        " +"
      ],
      [
        "% of ",
        "2500"
      ],
      [
        "18",
        "% of 2500"
      ],
      [
        "2 +",
        " 2"
      ],
      [
        "18% of 2500",
        "0"
      ],
      [
        "notification",
        "s"
      ],
      [
        "notification",
        "s "
      ],
      [
        " ",
        "-"
      ],
      [
        " ",
        "35"
      ],
      [
        "100",
        " -"
      ],
      [
        "100 -",
        " 35"
      ],
      [
        " ",
        "/"
      ],
      [
        " ",
        "5"
      ],
      [
        "500",
        " /"
      ],
      [
        "500 /",
        " 5"
      ],
      [
        " ",
        "*"
      ],
      [
        " ",
        "1"
      ],
      [
        "2",
        "3"
      ],
      [
        "4",
        "5"
      ],
      [
        " *",
        " 1"
      ],
      [
        "45",
        " * 1"
      ],
      [
        "45 * 1",
        "23"
      ],
      [
        "4",
        "500"
      ],
      [
        "e\", \"value\": \"",
        "Jenil"
      ],
      [
        "usernam",
        "e\", \"value\": \"Jenil"
      ],
      [
        "\", \"",
        "value\": \""
      ],
      [
        "e\", \"value\": \"",
        "14px"
      ],
      [
        "font_siz",
        "e\", \"value\": \"14px"
      ],
      [
        "notifications",
        "\", \"value\": \""
      ],
      [
        "notifications\", \"value\": \"",
        "enabled"
      ],
      [
        "6",
        "5"
      ],
      [
        "e\", \"value\": \"",
        "dark"
      ],
      [
        "them",
        "e\", \"value\": \"dark"
      ],
      [
        "e\", \"value\": \"",
        "desktop"
      ],
      [
        "workspac",
        "e\", \"value\": \"desktop"
      ],
      [
        "5",
        "5"
      ],
      [
        "55",
        "35"
      ],
      [
        "usernam",
        "e<|verified_facts|>{\"type\": \"retrieved_preference\", \"key\": \""
      ],
      [
        "usernam",
        "e which is "
      ],
      [
        "\"}<|end_facts|><|final_answer|>I recalled your ",
        "username which is "
      ],
      [
        "<|user_prompt|>retrieve my ",
        "username<|verified_facts|>{\"type\": \"retrieved_preference\", \"key\": \""
      ],
      [
        "Jenil",
        ".\r\n"
      ],
      [
        "username\", \"value\": \"Jenil",
        "\"}<|end_facts|><|final_answer|>I recalled your username which is "
      ],
      [
        "<|user_prompt|>retrieve my username<|verified_facts|>{\"type\": \"retrieved_preference\", \"key\": \"",
        "username\", \"value\": \"Jenil\"}<|end_facts|><|final_answer|>I recalled your username which is "
      ],
      [
        "<|user_prompt|>retrieve my username<|verified_facts|>{\"type\": \"retrieved_preference\", \"key\": \"username\", \"value\": \"Jenil\"}<|end_facts|><|final_answer|>I recalled your username which is ",
        "Jenil.\r\n"
      ],
      [
        "4",
        ".\r\n"
      ],
      [
        "4",
        "}<|end_facts|><|final_answer|>The result of "
      ],
      [
        " is ",
        "4500"
      ],
      [
        " is ",
        "4.\r\n"
      ],
      [
        "font_siz",
        "e<|verified_facts|>{\"type\": \"retrieved_preference\", \"key\": \""
      ],
      [
        "font_siz",
        "e which is "
      ],
      [
        "them",
        "e<|verified_facts|>{\"type\": \"retrieved_preference\", \"key\": \""
      ],
      [
        "them",
        "e which is "
      ],
      [
        "\"}<|end_facts|><|final_answer|>I recalled your ",
        "font_size which is "
      ],
      [
        "\"}<|end_facts|><|final_answer|>I recalled your ",
        "theme which is "
      ],
      [
        "<|user_prompt|>retrieve my ",
        "font_size<|verified_facts|>{\"type\": \"retrieved_preference\", \"key\": \""
      ],
      [
        "<|user_prompt|>retrieve my ",
        "theme<|verified_facts|>{\"type\": \"retrieved_preference\", \"key\": \""
      ],
      [
        "<|user_prompt|>calculate ",
        "2 + 2"
      ],
      [
        "<|user_prompt|>calculate ",
        "18% of 25000"
      ],
      [
        "}<|end_facts|><|final_answer|>The result of ",
        "18% of 25000"
      ],
      [
        "\", \"result\": ",
        "4500"
      ],
      [
        "\", \"result\": ",
        "4}<|end_facts|><|final_answer|>The result of "
      ],
      [
        "<|verified_facts|>{\"type\": \"calculation\", \"expression\": \"",
        "2 + 2"
      ],
      [
        "<|verified_facts|>{\"type\": \"calculation\", \"expression\": \"",
        "18% of 25000"
      ],
      [
        "14px",
        ".\r\n"
      ],
      [
        "dark",
        ".\r\n"
      ],
      [
        "2 + 2",
        " is 4.\r\n"
      ],
      [
        "font_size\", \"value\": \"14px",
        "\"}<|end_facts|><|final_answer|>I recalled your font_size which is "
      ],
      [
        "theme\", \"value\": \"dark",
        "\"}<|end_facts|><|final_answer|>I recalled your theme which is "
      ],
      [
        " is 4500",
        ".\r\n"
      ],
      [
        "<|user_prompt|>retrieve my font_size<|verified_facts|>{\"type\": \"retrieved_preference\", \"key\": \"",
        "font_size\", \"value\": \"14px\"}<|end_facts|><|final_answer|>I recalled your font_size which is "
      ],
      [
        "<|user_prompt|>retrieve my theme<|verified_facts|>{\"type\": \"retrieved_preference\", \"key\": \"",
        "theme\", \"value\": \"dark\"}<|end_facts|><|final_answer|>I recalled your theme which is "
      ],
      [
        "<|user_prompt|>calculate 2 + 2",
        "<|verified_facts|>{\"type\": \"calculation\", \"expression\": \"2 + 2"
      ],
      [
        "<|user_prompt|>calculate 18% of 25000",
        "<|verified_facts|>{\"type\": \"calculation\", \"expression\": \"18% of 25000"
      ],
      [
        "}<|end_facts|><|final_answer|>The result of 18% of 25000",
        " is 4500.\r\n"
      ],
      [
        "\", \"result\": 4500",
        "}<|end_facts|><|final_answer|>The result of 18% of 25000 is 4500.\r\n"
      ],
      [
        "\", \"result\": 4}<|end_facts|><|final_answer|>The result of ",
        "2 + 2 is 4.\r\n"
      ],
      [
        "<|user_prompt|>retrieve my font_size<|verified_facts|>{\"type\": \"retrieved_preference\", \"key\": \"font_size\", \"value\": \"14px\"}<|end_facts|><|final_answer|>I recalled your font_size which is ",
        "14px.\r\n"
      ],
      [
        "<|user_prompt|>retrieve my theme<|verified_facts|>{\"type\": \"retrieved_preference\", \"key\": \"theme\", \"value\": \"dark\"}<|end_facts|><|final_answer|>I recalled your theme which is ",
        "dark.\r\n"
      ],
      [
        "<|user_prompt|>calculate 2 + 2<|verified_facts|>{\"type\": \"calculation\", \"expression\": \"2 + 2",
        "\", \"result\": 4}<|end_facts|><|final_answer|>The result of 2 + 2 is 4.\r\n"
      ],
      [
        "<|user_prompt|>calculate 18% of 25000<|verified_facts|>{\"type\": \"calculation\", \"expression\": \"18% of 25000",
        "\", \"result\": 4500}<|end_facts|><|final_answer|>The result of 18% of 25000 is 4500.\r\n"
      ],
      [
        "workspac",
        "e as "
      ],
      [
        "workspac",
        "e preference.\r\n"
      ],
      [
        "which is ",
        "enabled"
      ],
      [
        "<|verified_facts|>{\"type\": \"retrieved_preference\", \"key\": \"",
        "notifications\", \"value\": \"enabled"
      ],
      [
        "\"}<|end_facts|><|final_answer|>I recalled your ",
        "notifications "
      ],
      [
        "<|user_prompt|>retrieve my ",
        "notifications"
      ],
      [
        "<|verified_facts|>{\"type\": \"stored_preference\", \"key\": \"",
        "workspace\", \"value\": \"desktop"
      ],
      [
        "<|user_prompt|>store preference ",
        "workspace as "
      ],
      [
        "\"}<|end_facts|><|final_answer|>Successfully remembered your ",
        "workspace preference.\r\n"
      ],
      [
        "desktop",
        "<|verified_facts|>{\"type\": \"stored_preference\", \"key\": \"workspace\", \"value\": \"desktop"
      ],
      [
        "which is enabled",
        ".\r\n"
      ],
      [
        "<|verified_facts|>{\"type\": \"retrieved_preference\", \"key\": \"notifications\", \"value\": \"enabled",
        "\"}<|end_facts|><|final_answer|>I recalled your notifications "
      ],
      [
        "<|user_prompt|>retrieve my notifications",
        "<|verified_facts|>{\"type\": \"retrieved_preference\", \"key\": \"notifications\", \"value\": \"enabled\"}<|end_facts|><|final_answer|>I recalled your notifications "
      ],
      [
        "<|user_prompt|>store preference workspace as ",
        "desktop<|verified_facts|>{\"type\": \"stored_preference\", \"key\": \"workspace\", \"value\": \"desktop"
      ],
      [
        "<|user_prompt|>retrieve my notifications<|verified_facts|>{\"type\": \"retrieved_preference\", \"key\": \"notifications\", \"value\": \"enabled\"}<|end_facts|><|final_answer|>I recalled your notifications ",
        "which is enabled.\r\n"
      ],
      [
        "<|user_prompt|>store preference workspace as desktop<|verified_facts|>{\"type\": \"stored_preference\", \"key\": \"workspace\", \"value\": \"desktop",
        "\"}<|end_facts|><|final_answer|>Successfully remembered your workspace preference.\r\n"
      ],
      [
        "Python",
        "!\r\n"
      ],
      [
        "Python",
        "<|verified_facts|>{\"type\": \"language\", \"value\": \""
      ],
      [
        "Python",
        "\"}<|end_facts|><|final_answer|>Hello and welcome in "
      ],
      [
        "Javascript",
        "<|verified_facts|>{\"type\": \"code_language\", \"language\": \""
      ],
      [
        "Javascript",
        " is valid.\r\n"
      ],
      [
        "Javascript",
        "\"}, {\"type\": \"syntax_check\", \"language\": \""
      ],
      [
        "Javascript",
        "\", \"valid\": true}<|end_facts|><|final_answer|>Code syntax in "
      ],
      [
        "<|user_prompt|>check code for ",
        "Javascript<|verified_facts|>{\"type\": \"code_language\", \"language\": \""
      ],
      [
        "<|user_prompt|>greet the user in ",
        "Python<|verified_facts|>{\"type\": \"language\", \"value\": \""
      ],
      [
        "Python\"}<|end_facts|><|final_answer|>Hello and welcome in ",
        "Python!\r\n"
      ],
      [
        "Javascript\"}, {\"type\": \"syntax_check\", \"language\": \"",
        "Javascript\", \"valid\": true}<|end_facts|><|final_answer|>Code syntax in "
      ],
      [
        "<|user_prompt|>check code for Javascript<|verified_facts|>{\"type\": \"code_language\", \"language\": \"",
        "Javascript\"}, {\"type\": \"syntax_check\", \"language\": \"Javascript\", \"valid\": true}<|end_facts|><|final_answer|>Code syntax in "
      ],
      [
        "<|user_prompt|>greet the user in Python<|verified_facts|>{\"type\": \"language\", \"value\": \"",
        "Python\"}<|end_facts|><|final_answer|>Hello and welcome in Python!\r\n"
      ],
      [
        "<|user_prompt|>check code for Javascript<|verified_facts|>{\"type\": \"code_language\", \"language\": \"Javascript\"}, {\"type\": \"syntax_check\", \"language\": \"Javascript\", \"valid\": true}<|end_facts|><|final_answer|>Code syntax in ",
        "Javascript is valid.\r\n"
      ],
      [
        " is ",
        "65"
      ],
      [
        "<|user_prompt|>calculate ",
        "100 - 35"
      ],
      [
        "}<|end_facts|><|final_answer|>The result of ",
        "100 - 35"
      ],
      [
        "\", \"result\": ",
        "65"
      ],
      [
        "<|verified_facts|>{\"type\": \"calculation\", \"expression\": \"",
        "100 - 35"
      ],
      [
        "as ",
        "enabled"
      ],
      [
        "<|verified_facts|>{\"type\": \"stored_preference\", \"key\": \"",
        "notifications\", \"value\": \"enabled"
      ],
      [
        "<|user_prompt|>store preference ",
        "notifications "
      ],
      [
        "\"}<|end_facts|><|final_answer|>Successfully remembered your ",
        "notifications "
      ],
      [
        " is 65",
        ".\r\n"
      ],
      [
        "<|user_prompt|>calculate 100 - 35",
        "<|verified_facts|>{\"type\": \"calculation\", \"expression\": \"100 - 35"
      ],
      [
        "}<|end_facts|><|final_answer|>The result of 100 - 35",
        " is 65.\r\n"
      ],
      [
        "\", \"result\": 65",
        "}<|end_facts|><|final_answer|>The result of 100 - 35 is 65.\r\n"
      ],
      [
        "as enabled",
        "<|verified_facts|>{\"type\": \"stored_preference\", \"key\": \"notifications\", \"value\": \"enabled"
      ],
      [
        "<|user_prompt|>store preference notifications ",
        "as enabled<|verified_facts|>{\"type\": \"stored_preference\", \"key\": \"notifications\", \"value\": \"enabled"
      ],
      [
        "\"}<|end_facts|><|final_answer|>Successfully remembered your notifications ",
        "preference.\r\n"
      ],
      [
        "<|user_prompt|>calculate 100 - 35<|verified_facts|>{\"type\": \"calculation\", \"expression\": \"100 - 35",
        "\", \"result\": 65}<|end_facts|><|final_answer|>The result of 100 - 35 is 65.\r\n"
      ],
      [
        "<|user_prompt|>store preference notifications as enabled<|verified_facts|>{\"type\": \"stored_preference\", \"key\": \"notifications\", \"value\": \"enabled",
        "\"}<|end_facts|><|final_answer|>Successfully remembered your notifications preference.\r\n"
      ],
      [
        "usernam",
        "e as "
      ],
      [
        "usernam",
        "e preference.\r\n"
      ],
      [
        "<|verified_facts|>{\"type\": \"stored_preference\", \"key\": \"",
        "username\", \"value\": \"Jenil"
      ],
      [
        "<|user_prompt|>store preference ",
        "username as "
      ],
      [
        "\"}<|end_facts|><|final_answer|>Successfully remembered your ",
        "username preference.\r\n"
      ],
      [
        "Jenil",
        "<|verified_facts|>{\"type\": \"stored_preference\", \"key\": \"username\", \"value\": \"Jenil"
      ],
      [
        "<|user_prompt|>store preference username as ",
        "Jenil<|verified_facts|>{\"type\": \"stored_preference\", \"key\": \"username\", \"value\": \"Jenil"
      ],
      [
        "<|user_prompt|>store preference username as Jenil<|verified_facts|>{\"type\": \"stored_preference\", \"key\": \"username\", \"value\": \"Jenil",
        "\"}<|end_facts|><|final_answer|>Successfully remembered your username preference.\r\n"
      ],
      [
        "font_siz",
        "e as "
      ],
      [
        "font_siz",
        "e preference.\r\n"
      ],
      [
        "English",
        "<|verified_facts|>{\"type\": \"code_language\", \"language\": \""
      ],
      [
        "English",
        " is valid.\r\n"
      ],
      [
        "English",
        "\"}, {\"type\": \"syntax_check\", \"language\": \""
      ],
      [
        "English",
        "\", \"valid\": true}<|end_facts|><|final_answer|>Code syntax in "
      ],
      [
        "<|user_prompt|>check code for ",
        "English<|verified_facts|>{\"type\": \"code_language\", \"language\": \""
      ],
      [
        "<|verified_facts|>{\"type\": \"stored_preference\", \"key\": \"",
        "font_size\", \"value\": \"14px"
      ],
      [
        "<|user_prompt|>store preference ",
        "font_size as "
      ],
      [
        "\"}<|end_facts|><|final_answer|>Successfully remembered your ",
        "font_size preference.\r\n"
      ],
      [
        "14px",
        "<|verified_facts|>{\"type\": \"stored_preference\", \"key\": \"font_size\", \"value\": \"14px"
      ],
      [
        "English\"}, {\"type\": \"syntax_check\", \"language\": \"",
        "English\", \"valid\": true}<|end_facts|><|final_answer|>Code syntax in "
      ],
      [
        "<|user_prompt|>check code for English<|verified_facts|>{\"type\": \"code_language\", \"language\": \"",
        "English\"}, {\"type\": \"syntax_check\", \"language\": \"English\", \"valid\": true}<|end_facts|><|final_answer|>Code syntax in "
      ],
      [
        "<|user_prompt|>store preference font_size as ",
        "14px<|verified_facts|>{\"type\": \"stored_preference\", \"key\": \"font_size\", \"value\": \"14px"
      ],
      [
        "<|user_prompt|>check code for English<|verified_facts|>{\"type\": \"code_language\", \"language\": \"English\"}, {\"type\": \"syntax_check\", \"language\": \"English\", \"valid\": true}<|end_facts|><|final_answer|>Code syntax in ",
        "English is valid.\r\n"
      ],
      [
        "<|user_prompt|>store preference font_size as 14px<|verified_facts|>{\"type\": \"stored_preference\", \"key\": \"font_size\", \"value\": \"14px",
        "\"}<|end_facts|><|final_answer|>Successfully remembered your font_size preference.\r\n"
      ],
      [
        " is ",
        "100"
      ],
      [
        "Python",
        "<|verified_facts|>{\"type\": \"code_language\", \"language\": \""
      ],
      [
        "Python",
        " is valid.\r\n"
      ],
      [
        "Python",
        "\"}, {\"type\": \"syntax_check\", \"language\": \""
      ],
      [
        "Python",
        "\", \"valid\": true}<|end_facts|><|final_answer|>Code syntax in "
      ],
      [
        "<|user_prompt|>check code for ",
        "Python<|verified_facts|>{\"type\": \"code_language\", \"language\": \""
      ],
      [
        "<|user_prompt|>calculate ",
        "500 / 5"
      ],
      [
        "}<|end_facts|><|final_answer|>The result of ",
        "500 / 5"
      ],
      [
        "\", \"result\": ",
        "100"
      ],
      [
        "<|verified_facts|>{\"type\": \"calculation\", \"expression\": \"",
        "500 / 5"
      ],
      [
        " is 100",
        ".\r\n"
      ],
      [
        "Python\"}, {\"type\": \"syntax_check\", \"language\": \"",
        "Python\", \"valid\": true}<|end_facts|><|final_answer|>Code syntax in "
      ],
      [
        "<|user_prompt|>check code for Python<|verified_facts|>{\"type\": \"code_language\", \"language\": \"",
        "Python\"}, {\"type\": \"syntax_check\", \"language\": \"Python\", \"valid\": true}<|end_facts|><|final_answer|>Code syntax in "
      ],
      [
        "<|user_prompt|>calculate 500 / 5",
        "<|verified_facts|>{\"type\": \"calculation\", \"expression\": \"500 / 5"
      ],
      [
        "}<|end_facts|><|final_answer|>The result of 500 / 5",
        " is 100.\r\n"
      ],
      [
        "\", \"result\": 100",
        "}<|end_facts|><|final_answer|>The result of 500 / 5 is 100.\r\n"
      ],
      [
        "<|user_prompt|>check code for Python<|verified_facts|>{\"type\": \"code_language\", \"language\": \"Python\"}, {\"type\": \"syntax_check\", \"language\": \"Python\", \"valid\": true}<|end_facts|><|final_answer|>Code syntax in ",
        "Python is valid.\r\n"
      ],
      [
        "<|user_prompt|>calculate 500 / 5<|verified_facts|>{\"type\": \"calculation\", \"expression\": \"500 / 5",
        "\", \"result\": 100}<|end_facts|><|final_answer|>The result of 500 / 5 is 100.\r\n"
      ],
      [
        "Rust",
        "<|verified_facts|>{\"type\": \"code_language\", \"language\": \""
      ],
      [
        "Rust",
        " is valid.\r\n"
      ],
      [
        "Rust",
        "\"}, {\"type\": \"syntax_check\", \"language\": \""
      ],
      [
        "Rust",
        "\", \"valid\": true}<|end_facts|><|final_answer|>Code syntax in "
      ],
      [
        "<|user_prompt|>check code for ",
        "Rust<|verified_facts|>{\"type\": \"code_language\", \"language\": \""
      ],
      [
        "Rust\"}, {\"type\": \"syntax_check\", \"language\": \"",
        "Rust\", \"valid\": true}<|end_facts|><|final_answer|>Code syntax in "
      ],
      [
        "<|user_prompt|>check code for Rust<|verified_facts|>{\"type\": \"code_language\", \"language\": \"",
        "Rust\"}, {\"type\": \"syntax_check\", \"language\": \"Rust\", \"valid\": true}<|end_facts|><|final_answer|>Code syntax in "
      ],
      [
        "<|user_prompt|>check code for Rust<|verified_facts|>{\"type\": \"code_language\", \"language\": \"Rust\"}, {\"type\": \"syntax_check\", \"language\": \"Rust\", \"valid\": true}<|end_facts|><|final_answer|>Code syntax in ",
        "Rust is valid.\r\n"
      ],
      [
        "workspac",
        "e<|verified_facts|>{\"type\": \"retrieved_preference\", \"key\": \""
      ],
      [
        "workspac",
        "e which is "
      ],
      [
        "\"}<|end_facts|><|final_answer|>I recalled your ",
        "workspace which is "
      ],
      [
        "<|user_prompt|>retrieve my ",
        "workspace<|verified_facts|>{\"type\": \"retrieved_preference\", \"key\": \""
      ],
      [
        "desktop",
        ".\r\n"
      ],
      [
        "workspace\", \"value\": \"desktop",
        "\"}<|end_facts|><|final_answer|>I recalled your workspace which is "
      ],
      [
        "<|user_prompt|>retrieve my workspace<|verified_facts|>{\"type\": \"retrieved_preference\", \"key\": \"",
        "workspace\", \"value\": \"desktop\"}<|end_facts|><|final_answer|>I recalled your workspace which is "
      ],
      [
        "<|user_prompt|>retrieve my workspace<|verified_facts|>{\"type\": \"retrieved_preference\", \"key\": \"workspace\", \"value\": \"desktop\"}<|end_facts|><|final_answer|>I recalled your workspace which is ",
        "desktop.\r\n"
      ],
      [
        "Java",
        "<|verified_facts|>{\"type\": \"code_language\", \"language\": \""
      ],
      [
        "Java",
        " is valid.\r\n"
      ],
      [
        "Java",
        "\"}, {\"type\": \"syntax_check\", \"language\": \""
      ],
      [
        "Java",
        "\", \"valid\": true}<|end_facts|><|final_answer|>Code syntax in "
      ],
      [
        "them",
        "e as "
      ],
      [
        "them",
        "e preference.\r\n"
      ],
      [
        "<|user_prompt|>check code for ",
        "Java<|verified_facts|>{\"type\": \"code_language\", \"language\": \""
      ],
      [
        "<|verified_facts|>{\"type\": \"stored_preference\", \"key\": \"",
        "theme\", \"value\": \"dark"
      ],
      [
        "<|user_prompt|>store preference ",
        "theme as "
      ],
      [
        "\"}<|end_facts|><|final_answer|>Successfully remembered your ",
        "theme preference.\r\n"
      ],
      [
        "dark",
        "<|verified_facts|>{\"type\": \"stored_preference\", \"key\": \"theme\", \"value\": \"dark"
      ],
      [
        "Java\"}, {\"type\": \"syntax_check\", \"language\": \"",
        "Java\", \"valid\": true}<|end_facts|><|final_answer|>Code syntax in "
      ],
      [
        "<|user_prompt|>check code for Java<|verified_facts|>{\"type\": \"code_language\", \"language\": \"",
        "Java\"}, {\"type\": \"syntax_check\", \"language\": \"Java\", \"valid\": true}<|end_facts|><|final_answer|>Code syntax in "
      ],
      [
        "<|user_prompt|>store preference theme as ",
        "dark<|verified_facts|>{\"type\": \"stored_preference\", \"key\": \"theme\", \"value\": \"dark"
      ],
      [
        "<|user_prompt|>check code for Java<|verified_facts|>{\"type\": \"code_language\", \"language\": \"Java\"}, {\"type\": \"syntax_check\", \"language\": \"Java\", \"valid\": true}<|end_facts|><|final_answer|>Code syntax in ",
        "Java is valid.\r\n"
      ],
      [
        "<|user_prompt|>store preference theme as dark<|verified_facts|>{\"type\": \"stored_preference\", \"key\": \"theme\", \"value\": \"dark",
        "\"}<|end_facts|><|final_answer|>Successfully remembered your theme preference.\r\n"
      ],
      [
        " is ",
        "5535"
      ],
      [
        "English",
        "!\r\n"
      ],
      [
        "English",
        "<|verified_facts|>{\"type\": \"language\", \"value\": \""
      ],
      [
        "English",
        "\"}<|end_facts|><|final_answer|>Hello and welcome in "
      ],
      [
        "<|user_prompt|>calculate ",
        "45 * 123"
      ],
      [
        "}<|end_facts|><|final_answer|>The result of ",
        "45 * 123"
      ],
      [
        "\", \"result\": ",
        "5535"
      ],
      [
        "<|verified_facts|>{\"type\": \"calculation\", \"expression\": \"",
        "45 * 123"
      ],
      [
        "<|user_prompt|>greet the user in ",
        "English<|verified_facts|>{\"type\": \"language\", \"value\": \""
      ],
      [
        " is 5535",
        ".\r\n"
      ],
      [
        "English\"}<|end_facts|><|final_answer|>Hello and welcome in ",
        "English!\r\n"
      ],
      [
        "<|user_prompt|>calculate 45 * 123",
        "<|verified_facts|>{\"type\": \"calculation\", \"expression\": \"45 * 123"
      ],
      [
        "}<|end_facts|><|final_answer|>The result of 45 * 123",
        " is 5535.\r\n"
      ],
      [
        "\", \"result\": 5535",
        "}<|end_facts|><|final_answer|>The result of 45 * 123 is 5535.\r\n"
      ],
      [
        "<|user_prompt|>greet the user in English<|verified_facts|>{\"type\": \"language\", \"value\": \"",
        "English\"}<|end_facts|><|final_answer|>Hello and welcome in English!\r\n"
      ],
      [
        "<|user_prompt|>calculate 45 * 123<|verified_facts|>{\"type\": \"calculation\", \"expression\": \"45 * 123",
        "\", \"result\": 5535}<|end_facts|><|final_answer|>The result of 45 * 123 is 5535.\r\n"
      ],
      [
        "Javascript",
        "!\r\n"
      ],
      [
        "Javascript",
        "<|verified_facts|>{\"type\": \"language\", \"value\": \""
      ],
      [
        "Javascript",
        "\"}<|end_facts|><|final_answer|>Hello and welcome in "
      ],
      [
        "<|user_prompt|>greet the user in ",
        "Javascript<|verified_facts|>{\"type\": \"language\", \"value\": \""
      ],
      [
        "Javascript\"}<|end_facts|><|final_answer|>Hello and welcome in ",
        "Javascript!\r\n"
      ],
      [
        "<|user_prompt|>greet the user in Javascript<|verified_facts|>{\"type\": \"language\", \"value\": \"",
        "Javascript\"}<|end_facts|><|final_answer|>Hello and welcome in Javascript!\r\n"
      ],
      [
        "C++",
        "!\r\n"
      ],
      [
        "C++",
        "<|verified_facts|>{\"type\": \"language\", \"value\": \""
      ],
      [
        "C++",
        "\"}<|end_facts|><|final_answer|>Hello and welcome in "
      ],
      [
        "<|user_prompt|>greet the user in ",
        "C++<|verified_facts|>{\"type\": \"language\", \"value\": \""
      ],
      [
        "C++\"}<|end_facts|><|final_answer|>Hello and welcome in ",
        "C++!\r\n"
      ],
      [
        "<|user_prompt|>greet the user in C++<|verified_facts|>{\"type\": \"language\", \"value\": \"",
        "C++\"}<|end_facts|><|final_answer|>Hello and welcome in C++!\r\n"
      ],
      [
        "Rust",
        "!\r\n"
      ],
      [
        "Rust",
        "<|verified_facts|>{\"type\": \"language\", \"value\": \""
      ],
      [
        "Rust",
        "\"}<|end_facts|><|final_answer|>Hello and welcome in "
      ],
      [
        "<|user_prompt|>greet the user in ",
        "Rust<|verified_facts|>{\"type\": \"language\", \"value\": \""
      ],
      [
        "Rust\"}<|end_facts|><|final_answer|>Hello and welcome in ",
        "Rust!\r\n"
      ],
      [
        "<|user_prompt|>greet the user in Rust<|verified_facts|>{\"type\": \"language\", \"value\": \"",
        "Rust\"}<|end_facts|><|final_answer|>Hello and welcome in Rust!\r\n"
      ],
      [
        "<|verified_facts|>{\"type\": \"code_language\", \"language\": \"",
        "C++"
      ],
      [
        "<|user_prompt|>check code for ",
        "C++"
      ],
      [
        "\"}, {\"type\": \"syntax_check\", \"language\": \"",
        "C++"
      ],
      [
        "\", \"valid\": true}<|end_facts|><|final_answer|>Code syntax in ",
        "C++"
      ],
      [
        "<|verified_facts|>{\"type\": \"code_language\", \"language\": \"C++",
        "\"}, {\"type\": \"syntax_check\", \"language\": \"C++"
      ],
      [
        "<|user_prompt|>check code for C++",
        "<|verified_facts|>{\"type\": \"code_language\", \"language\": \"C++\"}, {\"type\": \"syntax_check\", \"language\": \"C++"
      ],
      [
        "\", \"valid\": true}<|end_facts|><|final_answer|>Code syntax in C++",
        " is valid.\r\n"
      ],
      [
        "<|user_prompt|>check code for C++<|verified_facts|>{\"type\": \"code_language\", \"language\": \"C++\"}, {\"type\": \"syntax_check\", \"language\": \"C++",
        "\", \"valid\": true}<|end_facts|><|final_answer|>Code syntax in C++ is valid.\r\n"
      ],
      [
        "Java",
        "!\r\n"
      ],
      [
        "Java",
        "<|verified_facts|>{\"type\": \"language\", \"value\": \""
      ],
      [
        "Java",
        "\"}<|end_facts|><|final_answer|>Hello and welcome in "
      ],
      [
        "<|user_prompt|>greet the user in ",
        "Java<|verified_facts|>{\"type\": \"language\", \"value\": \""
      ],
      [
        "Java\"}<|end_facts|><|final_answer|>Hello and welcome in ",
        "Java!\r\n"
      ],
      [
        "<|user_prompt|>greet the user in Java<|verified_facts|>{\"type\": \"language\", \"value\": \"",
        "Java\"}<|end_facts|><|final_answer|>Hello and welcome in Java!\r\n"
      ]
    ]
  }
}